1100111101101110111101111110010001011000110110001000100111001000000101000101110011110000110000011101010100101010101111101111000000000000011101100001010001101101001100000100011001111010000010000001111100011001011001111011111101001111010100001111110010110001
1101111101101110011100111111110000010011111111010011101100000010000100011100101011100100110010011000010110110000101101101001000010010110010101100000011101110100011110101001010000100111101010000011001100110001111101110111100111001010011100000100100001100001
0111000111100010000011001000111000000101011011110111000111101111110001101001000111001110001001001011001011011100110011001101111101011101100010001111110010100101001001010111100101111100000100111101000111101101100010000010001001000000000010000100000101001110
0000010001111101111000101110110110111110000101011011010010001011001010101100000101010001000111010011101011001110001000111001101010100001010101101011111001011110111000111000001110001010101111000010111000001110010001001000110000011001101111111011101010111001
0011000100000001100011000000101111111100010011110100001110111101111011111010011100110010101000100001101001011011100011011010111111100100101011111001001001101011100000000110111100010100100111010100010110001001001010111001011000000100101111110000011100011001
1111111100000000000010111001111101001000101011110000111000110100110000100111101010110010100110111001101101110000110001001110011001100110111110110010001001110101000001111110100000000101000000100100110111101011111110111001101000100000100010000001101101010110
0111101010010000001001010111001001110100011110010000011110110101110010100011010000001110100100111110100111100101010011100110000100001001101111011101000010000001111011110100000000001000011001110011000101100011011011001101011010100101000011101111010010010101
1100111111011111010000011101000000010001101010011101101101000111011001000000100111001111011101011000110110100101010001101001011101011001101001100100010110100111111001001001000010100001001010010111100001011110110111001001000001010110000010001011000101000101
0000101001101101001100111011011001001011101101000011100000000010000110001001101001101011110110001010010010100001111011100001000010010010010011100110110000110101010001001010010100100011011100100011101100010110111101111101100100011011010000010001100001000010
1011000011010011100111000000111111101100001011101110000111111001111001100010111111011011001011100111100011001110111010010010111101110101100100011111101010001110111100110111101111000100100101011100011011001100000010000000111110100001101011110001010111111110
0000101000101100001100000101100111011110000101011011011000011101101110011100111100100000100110010101100010000001101001100101100110101001111101001010001011011110111110111100010011001010111110000011011010010110111011111101001100111011111101111111111010110101
1100101001111000011101011111000111011011100101001001010101000001101100010101110001010001110111011000011110000111001001100110000010001011011011100100100111001111011010001001010001000010111011001111101011110100110111000101010101001111010100111011011010000001
0100000011111011001101001001000100000101110000111001110101111110111010001001100011101110110111110011111010001111010000100010111100010011100000101011110010000111111110010010000010100000111101110111100001100100101111001100000000100001000010111111001110010010
0010011010101100100010110010101011011001110001100010110010110000100010100110111100101100110110011011010101110000110111111111010010101100010110011011010000010100000100111100101010001100001101110001011101110011111000111111100010111000001101000100110101110110
1111111110000100110001110001000001000000111011000100101111110100110101110011001010011010111010100100001110111000100100001111010001000100101010010001000110100001000101100100001000110001000011111000010101111011000111111011111001000110100111000100010001101101
1011100000001001000110101000110101001010010011100111100100001101101100011110111010110000101011000001101011010010111100010011111011100010010100110101111001010100111100000110101111010110111101000100111111101100100110010001110100000000100010111001111101011000
0011110000101000100111100110111111101010000101100110010010111000100010010111111000110000101111100111101001101010101110000111111010101110011110110110101001001010110101101110111000011110111101101000111110001001001000010101111110101000111101110100011001111001
1100010001011011011101000111010010000000100110001101000101101011011110010000000011011010000001110010100111001111001010110011100010011101100000001110100110001011111101000011011111010011010001001110101001011110000111000110110111001111100000111011101000110100
0000111011111001001101101110000111011111000100001111010111010101001110011100110001100000110111110111110001000011011101100010100000100010010000110100110001101110111110101011011010000011111011100011111110010110111001000101110110001000110101111010101110011000
0011000111110010011110001101001010000011101000011011000101001111111001001000000111000111011101000010010011001111011111001000111001011111000001101101110110100111001100110001000111100101100111001111000101000100100010000000010001110111011010101010000111001100
1010000011010010111111001111000110100100010100001111000101001011011110010101110001010011011001010000000110001111001011100011111000111111000011100101110111001011111011000011001011010000110111001110100011101100001111000110010101010101011011111111001110111001
1010001011010001110111111111010010000001101010101000010111110000110111000101000001011111111101110001110100001111011111100110010100010001100010111101110100001111010010100010001010110011010001110011101101100010101111011000011001000001000010101111000101000000
1110001110111111111101011111000011010000100100111101101101101101011101010001100001011110100001110100110110001011001011100010000100010011111001001101100111001111011000000010010101010010010011011011100110101111110111001100110100000101000100101111000110110001
1011010101010011110011001000010010110001100011101101100111111000000101010111000011011111011111100101011101001110101110011011011011110100000010110101110101101000000101100111101101110111001101001110111100111000000000010011110110011000111001101011000101101000
1011111100001100110110001100100101011110011011010100101010001011101101111010011010110010000010100101000001110100101000001101101011100100101011010010001011010111001110111111101001011110100110001001010110000001000011101100101101111100111111110000011010111001
1100111100101100000000110000110101011011001001010010111000000010000001101110001000110001110110011100010010100000100000111011011011010110111101000000011101110000001101111110000100110011100010100101100100111010110111111111101000011110000100000001101001110110
1100101000101100110100111010110101011110101011011101111000000000010100010111101010110110110010011100011010110000101000100011100010110110011100100000010101010001010001011010010101000010010000101010100000111111110111111111101101101101000100110101111001010001
0001000111110011111011111001010010000011101000001000100011100011000101000000000011011111111101010101110110101110111111011000010101110000010000010001110000111001010100000000000101110111001001010111100001111010001001011011111001011001000010001001000101001010
0010001010111101100011100000111010101101000001101111000011111010001010100110110101100101011111001011111010011111010111111000110110110001010100111011010000001100100001110110111110001011000101110000011100100100101000000010100110101000001001100110000101000110
1110101000001100000000100001111101001111101110110111111110011111101010101101101101100010000011011011101011110100100000001100101110110010010010110110101011010110101111111000100110001100111110101101010111100110111010111000000000110000101010110011111010010110
0010001110101110001000111101001010010011111001010101000110110110100000101000100101000111011100001100010110110101110111111100010100011000001111111111010010110000100000001000110000101001000001110101001101100011110001111100010010111000010010000100010101000011
1100111001111000111101011111010010111000110110001001111101101000010110010001000001111000100100010010100111101111101110110010000011011110110001001110100111011011110100011011010001010011011000000110100000111110010111000110100110001111100000111111101011110001
1001101010001000100110100110101111111010010001100100011110011100101111111111111100110000100010100101101000110011110101101111100110100010111011010110001001101111100010101100101000011000101010010000011111000001001001111001011101100100100011111100011010011001
1111100100010000100000011000111101000010011011010110100100110111100101101001011010000010001011001001001011100110100000000111111001100010110011110100101111110101011110000111101111010100110010000101100111101000101110110000011001000111100010111010111110011100
0011100000000101001010101000101101001111000100110110101100110101100000111110111000110000100111011101111011110000111011001001101011001010000011011110001001010001001110111101100100001100101001100101000100100000100011110001000110100000111011100001111010011010
0011011110010001111011000100001110111011001001001101000111011000101011100110010011110111011011101011011001001110010110011010111110110101010000111101110000101010100111000110111010110101001111001010111011111110100001000010010100001010101101010000100101100110
0100110111011110011100000111000110010011010000001011010111001011101111001100110001001111011011000101110010001111001101100100100100101001000000001001111110101110110100101001011111111001100111010011111001000111011001001110010101011111011100111110011110100001
0100011011101001001000111111000011101011101010101101000001111000110111000000100001001101110100111010110010000001000101100010110100110011110100101101110110000111110100001000110000000011010100110010101111010110111101101110110100011010000100100110100001000010
0111010100000101100010100000101110101111001011110010001110011010001011111110111110100000011011001101001101110000111110011111100011101100010101000011001001110100101100110000101110001100100110001000011100011001001000010010101110111000111101010000101001111111
0010001011010001000011000001111011101101000011111011010010111111111010001011000110101010011110010011101011010101010000110000110101110011100100011111110010010000110011110010101110001100010101111000100010000110100110000100010110100001101000100111000111010110
0101010010000000101011010101011010110000011111110000001010110000110001110010011010111111111000100111100100110101111110101110010101001111101010011010100110000001000011110110101000111101001001111000000101100011000110001011011010100100100011000101010001001111
1101110001010000111111011100110100101110000111001100101100101000010100010111000010110000011010110100000111000000101000010011101011111110101101010000101111011001111101000111011101011111010010001000100010011001000110000010101011011100111101011101101011101101
0010011110101110000000100100101110111110000000001111010010111000101111101000111100100100100110110010100010011001000001111000100100010001001100101011011010001100100110111001011010011001100110111000011011010101011001001101010110111011111111010101001011110011
0000010011101011000000100000101101001111111000001011110011011111101000101100101101000001110111000001110010101011000001101100110110110011010000100001111000101110100111111010011110101010101110011001011101000110001011101100010010011011011111010000111100111111
0101010111011001100011011100110110110001101111001001000000111010010101100111011010010111011001001100000100000010110110011011011011101110010111001100111101110001001101011110100101101101000000001000111100111011000100010011110011011110011001000001100001101011
0100111100101110011100110001000001010010110110011010111011111100010111110000100000001111110100010100010100100001101101101101000010001001111111010000000010111111000010101000010010111011001010100001101100010011011001011111010101001111010100011110111100110001
0111110100100100101011100000101111101000011111010110001010110001101101101110111010100000100001101101000000110000000110011101100011101100011011011001001100110100101100100111001100111100101010001000011110111001010010001011001001011100111101000000111000101101
0000001001111101101101000101010110011101110101001010010000011010000110011110101000000001110101001110110101001011101101100011101010101011010101110110110000110110110010101010011010001011111001000011111000010110011001111101010110101011000000111101101110000100
0000001011011011000110011101010010010011100000101101110001000010000110000101000111010111011111011011111010001111010101110010011001010011000000110111110100001010011001000010011000110111010001110010100001111110110100010100010110001101000110100011100101000010
0000010001101110001010101111111000111101100100011011000000111010000010011110101100000001001101011110010110110001011110111001000010101010010101011011011100110100100110011001010100100101101101100111101100110000111000100111000010111010011001001000101001001111
1001011001110110011111011111010010110111100100001101001101000010000100000101000001010001111001011110010100100110001110110011000110110111010000001010110010011110111101001001001111100011110011000110111000111000010000000011000101101111011001011011101000101101
0010001111001011000010001001001001010100101010111001010011110101110001000001010101011110111001100001111010101111010011000100010101010011100110111111100010000110011010110110100010010000010101110001000011100110101111001100011010100001000010100111000101010010
0101100010101100000011110011110001110100011010111000111010100101010001100011101110101100100100111110101111110001100000110111000101011100101111011010001110010001001000110100100101011110010000111001000110011011111110101101101010110100110000000001011001011101
1010000111111011010101101100011110011111101001101011110011011011101111100100001101100101011111010010111010001010110100000010111101110110000100100111110000111010100100001110111110100111100101011110110101000110111100000110110100110010001000111010100101100010
0000110000100101011110101101111000010011100101010111000100000011000111011100101001000001011111001100010101110010111100011001001010001011010001100110001001110000101100011001100111100101111000001111001100010000111100110011000011111010010000001000101001001110
0001101010001000000000111001001111011101010001110111110010110100101010001111111001110100100111001001111001111010110001000110111100001010011111110110000100010000100001100100101000001100110001110110010111100010101110111101011101110000000010110110011100011000
0101010100001110010000110000101001000111011111010110000110001110101001101001111110000111110010101000001010110001010000011100010011010100011011000001001110110111000111011101110010001000100110001001011110011001111011100001000001011110001101000100101010110111
1111000010001100100000100010101101101010010011110100101110111101111101011010010110110000100010000001101011011011100000110110110110100010111011110001101011001111011000110111101011011000101110010000111011101101000011100000001100000101101111110101111110111001
0010011000111101101110000111010110111100100101101001011000111000000010010111111101011001110100110110110110000111011010110010100000111101100101001110101111001110110110111101010001001011010101100010101000101110011010001110100110111001101101111101011010101111
0110111110101100000000100111001011110010110000010000010011111100111100100100110001001110100101000101010100011011010111101100010100001001011011111111010100101111100010011100010010001010001010010011011101110111011001001101010110011001000110110100011110100001
1111101100000010000011111011000000000001111110110000111000000101010100011011001110111010010000111110011111100000011010000011001001001110101011011000000111000001001001000100000100011000010000111111000110110001111110111011001011000100000000001111000010001100
1011000011011011101111011100010111001000000011101101000101101001010111010011010011011010101011110001101111101110111110000010111101100110000010110101100001011011011101000011001101010111010001001110101001100100000101000011011101000100110001101001010101111010
0011100100101000000011110001110001110100001011110000101010010111001001110011111110110110100000101101101100110001110011011010010110111100111101000011001011110100100111111100100010111111000100010101010110001001110110101011101010111000101101000001000000011101
0000011100101010000001110000111001111110101011010011110010011000011001100010001100100110110010011011101010011001100100111000010010110100011100010001111001011000000100101110011010010010000101110000111000011111011100111110111100011011001100000100110001110111
0010000010100011000010000000101110101111000000111011010111011110011011101000101101000110001110000010101011011101010100110000110100110101010101001011011010011010110101111010101110001101100101011000110011000100101010000100110010101001101110110101101111100110
1100101010101000100100110011000101011100110011111100111110001101111110010011111100101100100100000011100010110001000001110110000100010011111101110011001011011111110010011110001010011010010010100010100010111111011111101100101100001100000110110111011110110001
1100110110000100100011110011010010110000001110110000111010100001010001100011001110111110101000110110000100110100110110111011010101011101101101001001001111110001000001110100000101111101000000110000000100111001010110011011101010111100111001000100010001101101
1001111001010000111100101111100110001011110101000110001100100000000110011101010001010001110111011001011001101010101111000011101011101111010010111110001101100010111111001001111001000011111011001110111100010010010001010100011101001110111101011010111000001001
1100101000001101100100111001001001010000111000010010111100100100010100011001011110011010010100011001011110111101111101100100000110001010111011110000000111100001001010001100110000000010111010110001100001110010101111111101000001010101010010010110011010010000
0101110001101110010101101001111101010011111000010011111001000110101000101100101100000001100111001000011010001000010001101101000010001011011001101010001010001110101010011001100011101100111110001101010000010100111010111000000011011111010010011010001010011101
0001111000110111111110011111010000101011110101001100001100100010000100010111010011011001110101011100010101100010111111000011000010101110011011001100010101111101010101001011010101100111111001100011101000111010011100010111111111101111010000011101100011001100
1110110100001000111101000111100011111000010011010110001100010101111101111010010110001000000000100101001101011111000101100101000110001000101011000101001111100111001110010001110110011000110010011001011111000101000011110101011001010110110111011110011010101001
1101101110000001100100110110101111001110010010111110110111010101111101111011110110101010101010100001001001011011000101001100110001100001101111110111101010001011010010101100101001011010110110000010110011000110000111101000001100000100100111110111011110010000
0010000010100100101001100111001001011001010000101110110011111100110101010010010101101101111100001111101100101101010111111100100000001000101111011011100000111100000010110110011010011000011001110001011001100001110011101101001010101001000011100110010111001000
1110111110001101111100010111100011011000010111010110011010010101111111110010111110001000100000100100001001111001000001101100000110001000101011011100001011101111100110111100110000011000110010011101001110000011010011101101001101010110010111110100011010111001
0000110100101000101110101000101111101011010101010111100010011111101110011100011001000000110111001001011000100011111011001101001010001010011010111100001101110110001010101100111100001100111111001001011100010001000001111101010101101011011001111010111110101001
1111110100001110010101000101101011100100011010111100001110000101111010111011111110001010000000100111101000010101010001010100101101011001101011001010101010001111111010110001000011011100110010011101100011001101100011100100001001110101101010001111001010011101
1101110000000100000111011001001111001010110101110100001100110100100101011111011010011000101011100101001101101110111010001111001111101010010011111100001001100001001001101101100100000100111010111110011100111000001010110001011001100110110011011010011010001001
1011010110001000010011101000111100001011011001010111100111001111000101100111001100110000011011000000001001110100100100001111011101100000010111100101111000110110000101101011101111110100100111001111011111001101110000000001001000000000111111011010101100111000
0011000000101110011110000100101000111111001101110011001000000111000010111010101100000001001101011110100111100001111010111001101010011110001001001010001011010101111001011011110101101110111110001001001000111000100010100110101010111111011001000000101010101111
1000101101011110100001111111010001011010110100001001110000111000000100010100100001110101111101011000011110001010101100100001000010110010011100110100010101100000010101001000010000101011011001001000111101110010011101111111100111000010010100101111110001110001
1101101111010011010100111001000001000101111010110101111101100100110001011001001110111010010000111010001110111000011000000001011101010010101011100010001111110001011111010000100000110110010010111101100011101110100111100000011001100111100010001011000110011110
0000001001101101101101101111010110111011100101011010010000111000000110011100000001011001110101011110110111001101011111110010100000101011010110010110110100010010110010101001010110001011011001110011101000110010111101111110000110101011010000111101101000100110
1011000010000001000111001110111100111101000001110101001100101000111011010010111000110100001011000011100011010110111011010010111001110110010100111110100101001010110000011111101101000110111101111110110010101100100000111100100100100000101001111001001111011010
0010011110100001100000111110011010011001101001001101110011111000100111000101010001011110111011000001010000001110100111001110011001000111010110111101110000101010000101100110001100110011000001110110111101100010111101111010010101000011100110000110010101111010
1101110101010000111111011010010000110100101111011000101100100001010100000011000010011110001000111100000111000010111110000011011101011100101011011100100111100001011001100111000101110111001001101110100110111001000101010011111110001110110000101011010011011101
0000011011101111011000110111011001010011111000101000110010111100101111000100100101101111110100010010110110010001000101110100010000010001001100010001010100001110000110111100011000110011000100110011101001010111111101101110010011011011000110000100000111000111
0101000110000000101001110011011001111000011110000100111010110001110101110011011010011101110000100111000100111001110111001111000111001100101011011001001101100101000110100111111000010100001010111001001100100001010000101011011111001000110001000110010011001101
1111001111010101100001100100101101011100010011100100110111011101111001111011110100010100101010100011101001011011000111001110111101100000101011110111101111000111100101100110101000011100001100000111011011000101000011001000011101000001101111110101010110011000
1101101111011001110100011111001111010011000000001101000111011000101101001100010001010010100011000001011010001111010111000101011101100010010010110101010100101011111110001001111000100000101010010011110101110110100101111101010101011001010010111010011100000000
0100111001101110001000100000111110011011110100111011010010011110001010101100111100010101100100000010110100101101110001100100100010110011010100001011011000110111100110111100010000100001000100110001011100010110011001101110101010111011010100010101111000100111
0010011001111111110000001101110110000111110100011011000100001011001010101000100101000111001101011000111011101111001001110001100000011010010001100010111000000110110111011001010111100101101110010111100000010110011000100100100001110011001101111001001010100110
0100111001110111011000101010110000011011111100101011010000010010100010100101111001001101010100011110010100100000001111101101110010011001010100001010011001110001100001101000110010101000100001110001011000010011111000111010100011111011010101001110101001100111
0010010010101011011001110000110000111111101110001000011000101011010011110011001000001111101100111110000110110001101110111001010010010101010100000011010101110000000101011010010110101011100001100001101100010011111000111110100010111010011100000100101001000111
0000010010010011000010101011110110111000101010101011010101101100000010001101110011101101110011001011010010101100011011011010111100110011000110110111110000010000111000111110000011000111010101110110100001100110111110101101000001100001110000110011000001010011
1011000011011011100010011001011011011100111010101001010110101100010111000011000011001110111101011011111011001011011110010010011001010101010000111111110011010010110101010011001100010111011001110110100111100010100110001000011100000001101010101001000101011010
0010000111110011001011011011011010010101111000111011000101000111100111111100000101001111111101001010111011101111011011101000111001011011010000101110010100100100111010010011110111100001110001110111000001100010111000011001010000100001010010111011000101001100
1101101001101111010100110001101000010111111000110011100000000110000010001000000010000101100100011010111111100101010001100000101000011010110111101010000011010100111011101000000110000010110000110111100011010110111110111000000000100111000010010011001110011110
1001111100101110111100001100111100001011100101000111000100011010000101010111010011010001010011001100011100110010101110001111110010100100010000000100001101111110000100001010011111100011101011001010111100010011001001110001100101011011011100011100111001101101
0011110100010000101010000100111110101000010111010000001010110111100001101110011000000011101001101101001100101000110111001101011010001111011111011100101101100000001111000001100101101110101111000100011100110001000000010011011011010000110101011100010111001001
0000010010101000101001110110101010101011000000100001110011011000101100111111111100100011110010010101000000111001110101101100010010100100001110111001010100011100100010101100011000101011000100110001111011000100011001101101010111001000011111110100111111100011
0001001001000101001111001111001000111101110000111011110000111100000010010110011000101001111101011010111111101111011011100010100000111010100111111010110000000100110010110011001110000010111101110111101001100100111110101100011010100001000010100011000100001110
0011010100110010001011000110111010101101010100100010001011111011110001100000111101001101001101100111101001010100011010011101111111001101001111001110011000101100100010010001100111111101101110011000011100001001000000010010001011111011011001001000010001001111
0110101111111100001100011111001011001011100100000100100111100000100111010100110011011111110001011001010100101111111111101001010000011010011011100000010101101111000010000101011000110001000001110011001101110010111101001100110111011011010100100110100101000001
1011011111010011110110000100001010101010100000101101000111011000111001110111010011001000001011000001011001011110100100011110111001100101010010100101010000101111000101000111011110010000000110011011111111100101100001000001110101001110110110000100110101110010
1101100001000000011010011001001100010000010010000000001001010101100000011000010010111000001111101001001101110010011011001111011111001010100011010110001101100001001010000110110101100100011010111111010111100001100000010001011101110100110011011010000100011100
0011000110000111000000000000111101010111011001110010000011011111111011101000011100000011000111001001010001011101110011011100110001100101010010001111011000100000100110111100100010100100100110111101010111001101111010111001010000110101001011010000000100001110
1100111100101101101010110010110101111000111001001011110010111000000111100011111000111100100000111101111000011001100100110011110010100101010100011000010001110010100100101110011010011011001101011000011101011111001101111110111100001010100100010101110101110010
0011110100100111000010110000111001110010111011110000101010010110010001100010101110101110011100101100111111110000110011001000010111010010101111010010001000010100000011100110100000101110001000110001010100110001111100111001100010100000100000000100100001011011
1010000001111011010101000110110110101111010010111111010111001111111010101100100101101110000111010011101011001101001000110000100110110001010100100010101010011110111111111011011111001011110111011110110011010100100110000100100000110101101010111011001010111110
1000000000000110000110011111100011111100000010111010011111000101111010011011111100111000100100110010100010001111000001100011100111011111101011011110101110000111111010110100100001010010110010111100101010001110011011101100001111100101110010111101011010011101
1100101110101100100000110011000111001000010111001100110110110101111101110110011010111100100000000101010000011001100011101110000100000001111110011001000110101111000011001100010000011000001011010011100111100011000011101001011100000101100111101111010000110001
0011010100110101011101101111001000011111100100110111011011110010100001111100110001000101001001001101011100101111010111011101101100001011010011001100010000100100101110111001110100100001101110010101001101110001111000100001010001101111011001000000001010001000
0000110001101111011100100111010010100101100101111001010101000010000010010001000001011001010001011110110110000000001000110011000100110011011101001110110111010011111001111000010101100010010001110111101000011110111110101110100010111111010100111011001000100010
1100100001001010011100011000010101011111101111011111101100000011011110011100001101000010000111011000110011100010111001000001101010110010010001100100101011110011111110111001100110101100110010001111001001011110110010100100010001011111001110111000111010011100
1101101010111001100000111001001000010010111001000000111101110100100110000110011010110001110101001101110100111111110111000101011001001010111011111110010011100001010011100110100000100000011010110101000101110010101101111100010001000100000010111110010001010000
0110111100100110001000110001101101010011111100010010110110010111110001111101001010000100010001101100011110110001110001101101000110000010111011011001011000110001100101111000100010101000101110111001000100010001110001111101100001001110010000001010010100000011
1111101100000011010001101000111101000111001011010111101010010110111101101111011110100010010010100001001011110110110000011101011111000110110011100001011010110001001100011110100110110100100110011100010111001111101110110001101001010100100110010000110100110111
0111101111110011010011011001011000000001111010100100100101100110110001100001001011111110011001101000000111110110110110001000011101010110000000110100110000100101000001000010101011110101000110010100100101100000100100010011110011110010011011001000100101001100
0101010000000100001010011010110101111110000111110010011000001111000000111011011110101001100010100110100101110000001000010011100011111110111111001010101011010100111101111101101101001100111000001100111010101001000010100011101010100000101101000001101010111111
1100101010011011000001011001101011000101111010110001011010100111110010100001001110001010001100010010110010010101110001100100110101010011100010111110000010010011111011110000100101101000010001110101100011001111101110111000010000010100000010100011000100010110
0000011001101010111001000111010010111001110101001001011000101010010110010011100000010101011101101110110101001001101110110011000010111101011101001000010110001101101001001010010101110011001001000010001000011111001100001111110111001111011100001101101010100011
1110111110011010110100010111000000100000011111011100111101100101010111010011010110111010001000111110100111110000001001100011000101010011101011000110000111111011011011001110000001010010010010011010100010111011010111001011101010110101100010001111001010011101
1101000111001001110110001100100101000011000010000111100111011100101100111100011101010010010011100001101001011110100100001110111111100011010010110101101000001011011101001111111011000100101110011000111011001100100101000001010100010101101110110010110110111010
0011000010010001100010100010101111111100010011101111010110111000100010010110111100111100111111100111101001011011001110010010111111101101110100011110111001001010110100110111101100001110011101100010111011000100000001000000011110100000101011110101010111111010
1000010000001011011101000111100111101100000010101011011110001101011010111010001100101001000110110011101010000101001000110010100000111001100101000111101011011010111010011001111111011010110100100000101010001100100011100100000110110001101110111101101110110101
0101001110010100111011110011010011100000011010110000111011111001110000000111100100111111100101110101100110010101111111101110010101000000101111011111110110001101001000010110001000010000001001110011100110101011000111011001111010100101000011000111010111011001
1001000111010111011011101011110000100101111000111101100001001111110001001001101101011111011000001010110111000110010010000111111101110001010110111111100110010010011001010011001111110100010001110111100001001110100110011010011000110101110010001011000111011010
0010010001110100101010000110010010111111000100001010010011101000011000100000010001011101111101001110110000001011011110110001100010111101010101011011110100001110100100100110011001101111000101100000011000001111000000001110111110001011010101111101000111101111
0000001000101001001000111111000100111010100000111011110000111101111010010001000001110111110111011010110011000111011101100000100100010010000000111110010000100110110010111100010010001011010100110011101010100110111011111100110100001001000000111111010000010010
1101101000001101100000111011101101111010101011110000111000110100110010111110011010110000100110110011111000110000100001100110000111011010111110110010001011110000110010100100111010001010011100110001111110000011111111111100101110100000100111110101111000010100
0011000001100111001011100001101000101111110100110011001010011110001000101100101101001001011110011110110111110101010110111000100010011000110100001010010110000100100111010011100100101101101111110001001010111100110000001110100010111011011101000000101010000110
0011010111010011110111001000111010110011101100100011000001100010000001100001000011000111011101100001010101101110111110001001011011111110010100100100111001100100100111010011001110100101101101000100010001011000000000010010110111011010011001001000100101101110
1101110111011001110110111011110000010000001111011100101101101001010100010011000010111010011000110110000110100010101000000011110101111110101011011101101111011111011001100110000101010111010010001110100010011101000111000011101011000101100010001111000010111001
0110010110101111110001000100100010100100001010011110001111101111111011100000000110001111001000101110101100011101010110111000110101011101101001001011001010011011000110010111001101111101000110011000111010011111011011000010001011111110011101000100000010100111
0100000010000100000011110001011001100001011110111000011000001111010010001000001100101110100100111110100111100101011001110101000110000011111111001010100010010011001011110000110001111100010011010101100010100011111010111001001010100100010000101110000010001000
0011110101110111011111000000110100101101110100010010000001010011000101011100011001010001000001101100001101000110101111001101000010101100010011011100011000101110101100001011010110101111101011001111011100011000011000010011000011001011110101111000111010101101
0100010110100111010000100000111000010110111110110011010010010010110010101010001110000111110100011110010000110100010000111101110100111100111100011011001010000101100111111000100010101100100101111000010001111010111010111010100010110011001000001001000101000110
1010111101111010111101111110110110001010000111001100100000001000001101001101001111010010010010110100001111011010101100011001110110110101001100100000011101111011101100001001011101011111100110001000111110011011000101000010100101011010001101111101111011110101
1101111101100111111100011111000000001010110110011000101101000111000101010000110001011111100001111100010100100010101001000110000100001100111011010000000111101111000110101001010101110010101010100011101100010011001011010010101000000111010101011101110010001001
0000010011101111101001100110111010101011110100111011010011011111001010111100110101000101011111011010010001001111010111111001101000110000010101101011010000001110100110111001111010101101101111100011011001010100111001100100000110101011011001110100100100000010
0011110101110000001111000111001001011010110100000100001111010001101101011101010001010110010001001101011001100110111111001111001010001110011011011100010101100101101110101001110100100101101011100111000101110001110001011001011101011010010011111110010000001001
0011010101010010011011001000110110100111001001100111000111010011000001101111101110000011011011101101001101111110011110001011111011101110000011110111101101100100101101110111101111100101101101001100011111101101000000000001011011101010111001001001000001101111
1001101000001001000100101000111101000110001011110111101100000111101010111111101110110000100111010001001011110000110000000101101111110010110011110010001111010110111011101000100111001100111100001100110011101000101110010100100101100000101010110001111000011110
0001010001101110011101000100110000100101000100111100101000101011001010011101001001010001001001010110110101100011001110011001111010011111101011001010110011111001101010010000001000101111100110100111000010011001101011001011000011100111000001001111100111001100
1100010001110011111111011111010000110001110110001000001101101011010111010010000010011111001000111110110101000111001110110011000110011111111001001001100111011011011100000011011101110011010011000010101000011000010100000011101110011111011100001111101010100101
1011000100001011000101001001001001000011110001010011101001000110101100101000111001000001011111001010010001101110010111001101101011000010010011110100110010100111111010011001011110100000110010110101000111000100111010010101010000110101010010110010011110001010
1101101010011110011100010101000000010110111110011000001101000101111001011000100110001011000100111110101111100001011011000001100100011010101011011011000110000111011011111100010000110010010010110111100011110111110111101100001001000111010010001111001010011000
1000011001111000111101000101010111111010000100011111010111111001011111010100010001000001100101000111111011001011001001100110100010111001011001101001001111001110110110001101011011011010110110000011111110010100001011100100011100001011111101111111111010110001
0101010100100000001010100000111011101111010101010011000010011110001001111110111100000001101010000110101001110000011100011101100010101101010101010011111001101100101110011001111000011101101111000000011110010111001001110000001011111010101101010100111101100111
0000000011011011101000001011111000100001111010101001110111101010010010000010100001101111111111011011111111001101100111000010010101110100100100110011110100010100011001000010001010100011011001110010100001001110110100011110100010100001000000100101100101000110
0001110010101000101011100100001111101010000001000110000111111001011111110110110011110101110010001101101000011010100101111110011010101011011110011111011001101110000110101110111011001101101111000000011110110001011001100111110110001001111101010000010011101001
1010001001011111010100001101010100000111000000111011100101001111001010011000101101100001100011010010101011001111001001000011101000111111110001100010101011010011111010111001011011010011110110000110100010000100100111100100100100000111101110111011001010010000
0010001001101101001111000111001111101101010001111010011110101101101010111110110101101000100100010111101001001111010011110000100010111001110100111110110010001100110010110111010111001010111101000001001010100100000011100100000110101001111001111011011010001001
0011110000101000100011100110100111101000000101100010000010111000100110011110111000110000100011111111001001010010101110101110011110101110010100111110101001000000100100001111101101000100011101101010011110101001000000010011101110101001110101110101111001111001
1111111110001001000010111001101101000111011011110111111110011100111001101111011111100010110111100001101011011110110000011100011101100010000110110001001011000010100000101101101110001100100110111100110111000111100011111001011000010100100010110000011111010110
0001111111110001110011000100011110101010100001101100000011111000100101000111010011010111111011100011111000001110001110000110111101100101010000100101111101101011000101100010111101010111001111000010011111001000000001000010110110001010111101001011110101111010
0111000110100110000010110001111000000100111111110000101010000110010001100010101110001111100100111110100100110001110011111000011011010100101111011010010000110001001001110010100100100110001001111100000001111011111110111011101010110000000010000001000101011110
0100000011110110001111001111010110100100000100001011001101101011001100010100100001011011010101110101110101000110001010100110101000101011001011111111101110001111011110001001001101010111111010101110001010111000010010000110011010010111011011111110011010001001
0100011101100110011001010011010000100001111110010000101001101111010101100000000100011111001000111100010100110000011011101001000111011001111011001000010110110101000001011001010001111001110010001011000100111001011111011011101011011111010000001110000010000101
0100111000101001101100100111001101010010100101010001110001111000100100011100011101011010100100010101110100001001110101111101000010000001011110111000010110101100000010111100010010111010010000110001110101011011111101111101011111000111000110010110010010000101
0110010110000011110000000000011001110000111010101100000111101110110001100011100110001110111000110010100110011101100110011010010101010100101100100001110110001001000101010110001000110001000110011000110111000111000101001110111010010100101100000101010101110111
1110111000001001111100000110000101011110000011111111010100000100111110011010000100100100100011110001101010001011000000110011100110110001110100110000001011011010111110101001011011011010111110100110111011000110101111101100001100011101101110110101111010110000
0011100001010101000110001100110110101110000011101101000101001011000010010101100011101010011011110011101011001110011011010010111101111011000000101111101011000110111000100011101101001111111101001110010010101100000010000010101100100001101001111001110011001000
0100101010101101100010110111001011011000111001010000010011111101111110100100111001011100100101000000110000011001000111100110010100000010111010101101010110100101010001101110110000101000001010110001001101100011011111111101010111000101010110100110010110010001
0000111100101100111011100110110110101110000111001110001010011000001001111110111010100001100110100100001100011001100100111001000010101100001100000001001101101110000100011101011011011111101110000000011110011001010001000010100111011011111101000100111010100101
1100111100101011110100101110110010111010000111001101100110101000001110000111010011110000110010110100001010011010101100010011010010111101011100100101011101101010000100000100011001011011000100000010111100011111001101000110110111011010001101010000100001110101
0011010111110011111011001000010010100001101101001000110011111000100101000100010011011111111011110001000101001110111110011111011101111101010110110111110100101000000101100111001101110101001101101010111001111001000000000011110111011000101001001101010101101110
1110000110110011010111011100011010000000101010000101000111101011110001110001001111011111001000100000000010011110000100111000011011010001101000100100010101111011000001000011000100110101000010011110100011101000000111010011110101110110001010000110000111100000
1001100101111001010110001000110100000111101100000111000001001111101110101101001101000011010111001000010011110110010001001100111111110010010010100100011000110100111110011001100111101101111110001111100101010100111001110100000001110110011001011010101000001110
0100011100101100000001100111101000111011111100010010110010010110110001101000111100001111000100001110010100110001010001111101000110001000011101001010010110100101100011011100010000101010000000111001000100111011111001111110001010011010010110001100010000000111
0000001001100000001101111101001110011011110101000011110010010100001110011100111001000001111111011001010001101111111101100100001000101010010000100110010001100110110110101000110110100001111101000011111101010000111001111100010110101011010000111010011101110010
1100010000101111110010100111110010110100100111111011111100001101011010001001100100101110100100110110100110001101000000110010100100110101100100000000100110011011111010101100000011011010010100011010100000001110100111101110100110100101101000100101111010110100
1100101110001110110000111001000001000010011011010100101110000101110101100011001110101010011010110000111010110000000001001101010101010010101010100001000010110011000001011110100000010100100010010100100111001111100111111001101001010100000110000010110100010100
0100010001101110011100011101010000010111101100011011001000000011000010010001100101000111010100111010110110000001011100110010000011010110100101000110111110010101110101011000010100100111010000010010100000010110110010011110100010001111001000001101101010100111
1111101111010011010010111000101001000011111001010111110011010111101101100111001110100110011011100001011011110010110100001100011111000100010010100000011100110100001001111011101111110100100010000101010100011110100100010001010000011010011010010100110101111111
1111100001010100111111001110100110101111010111101101001101110011010100010111010011011010001011101111001101010110011010000010101011101111110011101101001101001001111101000011111101000101101100001110011010101001000000000001101111110000111001101001100011101100
1111110100000100110010100010101111001010010111000100111010010000100101111010111000110010100000100101000100110000111011001101100010101100111111010010001101001100100010100100111001011000101000000001010110101001001011001001011011001100101011001100011000111001
0001101001000101101010111011000101011000100101001001110000110100000100010110010000111100111111011011111100101011111111000111111100101010000111011010100001000000010110100100000000001010011001100100011000010000001001011111011111101000110001110111110111010010
1111000101001111010010101010110001100110001011111001101000001011010000100011001110111011100010110010100111010000100000010011110011010110100101100010101111011001011100011110000101010110011000111100100010101111100110111010101011110000101110001011101001010111
0111001000010000101111111110101001101011000100010100101101110000100100010111011010110000110011101101001101110010100110001110001101001110001111111110010101101001000110001101100100000100010011001010000110110001100000010001010111011000010111100100010011001001
0010000011101011001001100000001010101101001000101011010011111111111010100000101111100101011000101010100010011101010111111000110100110001100100000011110000011110100001010010001110101001000101010000011011000100100000001110010010110001000001000101100101000110
1111010100000010110010000010100010100000001011001100101010000100110001100011001110111111100000101100000111111100100100011011110111111101101011001001101110111001001001010111000001110100000010011000100001001011010110000010011011010100101111000101100001111111
1011001010001001100100011110100111011010000001100101101111100101101101011110011011110000011111100001011011011010110101000110011001100010000010110111101001101010010010000110111111000110110111001110111111100100101101110100010100010000110011110000110111011000
0011010110100100100011100000101111111010011001110110000010111000110101101110111010101000101111101101001100111110110111011101111001101100011111011011111000101100000010100110111110111100100110001001011111001001010001110001011000110001111111010000111101101101
0101010101010111101111101100111011011101000101000111000000000001100100101100111010000000111011101101001001001110011110011100101010101111100111110101111100000101101111000011100101001101101000101110011101011000000000000011010110111111111001010000110101111101
0100100110110100100000011101001000000011101000010100110101010001010101100101110011000111011100101000010101110011110111001111011011001000010010110001010100100001000110011100110100110111000010100001000100100010001101110001110111001110010110000100100001100010
1010101000001100010100100011101111011110010011110111100100010101101111111110111100101000100010010001101000110001001001100101100010000000111011100011001011000111110110111000111010001000111010010000010010000101110111100100001101100111101111110101011010110101
1011110101011100110110001100010110001011001101001110101100001010000101010111001011010001011011000100000000010010101110001111111011110111010110100101011100101011001101000011111101100101101011001110111100011000000100010010100111011011101101011011100101101001
0010001001100101101110000111101110101010000100101111000110111000001010011100110001011000111111100111010000001111011011110010100100101001011101010111111101001110110110100101110000001010001101100011111010000000100000001100000110101001111001111101011010111001
1000010100001100110000001000101101001111101011010111110010001010001101111110111100100001100110000001001010010000100000111000100011110100010100100001101101011111100110011011111111011100100110001000111010011111100110100000100101011000111101010000111101110111
0100101010000000101011010111001011111000010110111000011101110101110100010011010110011101101000100101110100010110010011100110001101111001101110011101100110001001010010000111000000010010010010110010001010100011000101001101011111010101100111101111010111011001
0110000101110011110011011110111110100001101110111101010101000011010001000001000101011111011111011010110011000110000000010010111101110111000000101110111010011001011001010001000101110111110001001110000000111110100100010010110110010110011000111011000111000110
1110101001010001011101011111000010000000101100011001011101000101010110000001000101011011010000100100010111000011101011100010000100011011100011100100000110001011011011100110000111010010010010001111100001111101110111001101010001000101010000101111000010011001
0010010011111010111001010110001010111011110100101011010011111000001110011100110101001101111100011111110000001011011111111100100010001001010100011010010000001100100110110011010000111011001111110011011011000000011001001101110111101011011101110100101011101101
1111101011000000010110101100101101000100000011110101001111011101101010011110111110100000111010101001001001111011010101001100101011100010101011100101001111000011010110100101111010011100101010100101110111000001100111100001001101110000111111110010011110011001
1000010001011111011000100010110110101100000011101011010000101000001010101011100101101100100010010010100010001001001000110010100000111101100101000011111011010110111101111001011011001010111101001010111000001110101010000100111110110001111101111101101010110111
0100101100001100010100111111000001100000010110010000111000110001110101010011111100111000100000111100000100110001101001101111000010001110111011011000001111100101001010011100010001011010000010110111100110110011011111111101001011001100000111000110011010110001
1100111111000111010100111111010000000100101010111001111101000111011110001001001110101111000101011010010011100100101000100001000101011000101001010011001110010001011010101001000111110011111000010111100001111010110110111111101011110111000000011011101100010110
1011010111110011111011001011010010110000100110001000000111100001010010000011000001011110011101110110110111001110011110000110011101111101100000110101110100001010010001000111001100110111010001110110100001001100000101001011011100010101100010101111010101101000
1000111000101011001100101101010100010011101000000011111100000010001010001101001001000111010111011000010011100001101100100001101011010010010000100100011001110110110100101000000110100011111011110111100000010110111110111110100100000110000100010010101000010110
0001110101110100111110001110111100001011010101000110111111010011000000101100111001010001011011101100010101101110111110001111001011101110000011110110011100100100001101000001110111100101101010001111011100110000010000010011010101001010010101011010100001001011
1100111100001011010000000000110110010111100011101011010100001110011010100000100101000110000100010000100110001101000000110001101010110101000100100000111010011010111101011000010110001111110100011100101011011110010110100110100100111010101000000011101000110110
0100101000101111000001100011011000010110101001111011110010001100001010101100101100100101000100011010010011100001100001111001000000010001111100001010011000110010100010101100010110111011100000010001100100010111111111111100100010111110000100010101101100110101
0011010000010000101010100010110111101100010101101100011010111000110010110111110001111100101011110111100000000110011011011011111101101101010100011110110001001110111000100111111101011111011101100010111010001100000000000000011110100000101111100001010011101001
1110111111101111011100010101000000010000111110011001100101001011110101001000100111001111011100111100010110001101000001100001100111010001101001000001000110101111001010110000010010111011000010010111100001010111111111001010011001010111000100001110000000100110
1100101011011111001100011011000000010001111000111101111101001111110110001001000111001011101100011000110110000111011001000111011101010011100011110100000110010011011010100000000010100000110000111111100001100110111111111100011000010111010010111011000110000000
1101110100010001010100001000100101010010001110010100101101000111101101001111010010110010010010100101001001000010100000000111011010100011111011110100001111110011011110000011101011010100101010001110110010111001000110000001001001000100110110011011010010011001
0000000010110001101011110011001011111101010011110001011010111100100010010110111101111100110110111011100110010011010011100110110100101011100100011011100110000100010000110110100100001010011101111000100011100110111010111100011110100000000011100101010101011110
1001101001101101011100001101100101011111100101010111100100000010000101011100111011010000010011001001010010100010101001000001000010010010010011101100001001110101111110001001010101001111111010001111000100111001101000110111000101011111011000111000101010111000
1100011111110011111101011110010010000001101110001001100101100011010100000101000111011111000001011100010110000100001010110010100101010100100000000100110100101011010101001011001101110011010000000110100000011010010101000011100011011111010100001011100001100110
0110000000000110011101000011110001110100010110111010011000000111001010111000001100101111000110011110101111100100111000110001110000110000101101011010001011011001101010011001000101001100110100100100100010011011111110110110101010100101101101101111001110011111
0011110100010000111111000001101111101011010100000000001110110001110001111010111000001000101101100111101101101110111011001101001010101100101011011100101111101101101111110111110001000101101011100101000111100001000010010001011011100101110011101100011010001101
0100111001111010111110110111010100001100100100001000011000100000010110010000100111011001111100111110100110100011011111110010100000011010101101001100010100000101100010010001010001111011011100110010101000010101011111011111100110011111010101101101011000000111
0010011001100011101011010111100000110100010000111000011000101101111010000001101101101001110110111011111110010101011101110000100100111010101100011010010110010100110010010101000011011010110001110001100010100100001111011100001110100001000000111111011010011110
0000001001111111001000100100011110011111100000111011010111011011001010001000100111000101010111001010110011001111010100110001100100010001010100101110011000111110100110011001011011100001101110000001111001010110111001001100100100001011010100011000001000000110
1011000010010001101111111010000111101000010111100100011100110101110110010110011011011000101001110101001001001110001110000110011101101110010010011101100001101110011001100111101100011111001001100110111010101001000000000001011110000000110011101011010010111001
1011000010001101000000101000101011011111011011110110000110011101101011101010111111100010101110000011101011011100000000011100011101001000100001100001001010100010100001101100101110001100110100010100010111000100100010100000001001110000101010010100011110011110
0100010111100111111011000110110010101100101110001100010011001010011001000010100101111111011000110100100110001101001110111011010000010101111100000001110111011010000101011001001101011111000000101010111000011111000100000010101110011001111101100101101000100111
1000001100001100000100010100101101001111000101010011101100011110001110111110111100100000000010001100001000010000110100111001100010111010011111100000001011110010111110011101110000001100110010001000111110010000101001101100000101111000111100010000111000110101
0011000001000001001011101010000110111101000101110101010000110000100010010111111001110100110111010011100001000100110011110010100100110011000101111110100100011100111001100110101110001110011101111010101011100100101110010100011010100001101000110101011111011110
1101101111010001110100011010101101000010001010000101101111010101111101011111001110110011110110100001001011110010100001001101111011100110100011110001001111010111001111101101101011010000100010001111110111001011110111100000001101010100101011110010111110110101
1101111101101100111100011110010000001110010101001100101001000000000100011111011010110001110010111100000111110000101100101011000011101110011011100000001101110111101110001001010001111011101010000110011100110001011101101111100101011110011101011110101001100001
0010101010101111100000100110101000111111110010100010010010111010110010101010101100101101101100101111101100111001010111111000000000000100100100011010010000001000000000110110001000101001001101110001011100000111011101111010101010101000000111000101010001000110
0100001111110011001101011001011000010001101000111001010101101111010001000101000111010111011101011010010010001111011111000100111101011011000010101100110100100000010001010011001111110101000101111110000101001110110100011110110010000111010010001010000101000110
1001111001010100111110111110110101001100101111011100101000000000000100010011111010110000010001110100000101110000101010000111100011101110011011010100101101110001111001100101110001010110111001101100111100110010011111110011001110111111110001000010111001101001
0011111100100100100000100000111111001010110101000110000011111000100001100110111110111000100100100101100000011000110111111111010010100100011110110001001001101101100101100100111100011000001110010000011100010001001001001111100111011010111101010100011100110111
0011110110100101100010100100101010111011010101000111110110111000000001111100110001001101011110001101011000011001000111101101000110000101000110011101011000101000100110110100111000001011001101111001011111000001011001110011000111011010101001000100111011101010
1011110010001000100010100011001111111000010101000100001110111000101010111110111000011000101001000111000000011011111111001111011100101000011111010111101101101110000010100100110000001100001101111010111101100001001000000001011111001001110111100100010111001001
1111101110010000111111101010100111111000010001001100010011111101100101000110010000011000101011100011101001001011001111001110011111100001011010111101110101101010001100100110111000010000000011000110011111101001000001000000011101001000100011111001010111111000
1110010110010010110011011011100001100100001011111100101100100001010111110011010110011010101000110100100111010100000010010010011101011101101011001100001110011011011001000110000101010110010010011000100010001111000111000011111011110100101101001101010010110001
1111111100100111010011111011111000010001111011110000111000100110000001110011001110111111111000111100010110110000111010001000010011011010101111000010001000110001000001100000100100111111010000111000100100111011111111111011101010110100001000000010000001001110
0001101011100001100011111000011000101001100101000000110000110000000101000111011011110101111110011000111111111000111110011011011011100110000100110000010101110000000100001110111100000011001001110000111101111010000000111110110111001010000100000110100101100110
1110001110001110110000110010101001110100001011100000111010111100110101100011011110101110001000100101001110111100100100011101010110000101101101011001001011111001000101011110100100011000000000011000110111001011011111111011111101011100101111000100010101110111
0110000110011010000011101001111011000111001010110011000111001111110001101000101111000111001100000100101011011101010110011000011111010001100100100111010010000001000011010110111110100100000100011001000101001101000100101000000011110100011010000100000101001110
0010010110101100100010100000111000101000001011100010110010111000000010100010001100100101110010101111101100110000100100111001010010100100011100010011111000011000000100110110111010001111000101110000010010110011111100111010101110111000101101000101110101100111
1100011101110010011111000001010000010101110110001011100001001010010001101001100110001111011000010100100110100001000100110000100010110110110000000101111010011011111001010011010111101011010110000001100000011100000101001010100001111111001100001011100011100111
0011010111010011110011100000111110101010101001101100010011111011101001100110010101001111011001100001100001011110000110011110111101100101010110110101110000101000010001110110011111110101000101010010011101001100000000001010111100011000101111000111010101101010
1000111001011110011101001111010100111110000101001011111001001011001110011101100000010001100011110000110101000011001000100011100010111010001000000110110111011111111110001001011001000010111011000110111000010110011001100110100110101111010100111111101010100001
0011000001110011001111011000011000100011100101010011000100101010000000101100101001000011011101001110110111100100011110001011101010111110010001001110011101110100100100110011000101100101101101001111000100110000111000010011100010111011011001001000100001001110
1000101001011001011110011111000111011100000100011111011101001011101110011001010101010000100001110100110111100011001000100111100011001011100011101010101111001011111001101001000001001010111010000110101010001100010111000101001100101101001000111001111010111001
0001010110110001100111100100111111111111100001001111000010011010100101101100110001110001111111001101001000001010000100011101111000100100010110110111110000101100100101100011111111001101101101000000011011011101000001010010110111111000101101010000100101101010
1111000110000011110011110010001001100000011011100100101111111100110001100011010010111110011000100101000101110000110110001110011111000101101000011001100100001000000001000110001000010001000001100001100011001101000111011001011001110100100011000111010101111010
1001011011010001101101001110010110111011110100000110100001110000100110010100110001010001010111011101010101101111001110000111001010101110000010111101000101101011110100001001111010110101110011101111111100110000011001000011010111011011010001111110011110101100
1111101001011000110100001111000111011110110000001111001101001111101110011100110001000000100011010011011011001111001001000111101010100011010010110100101011101011111110101011111011010000111010000110100011000100100011000100010101000111101110111010011010110000
1011000010001001100010101000110111101100000011100111010010011010001010100111011100110100010011011011100011001110100100011100111011110101010100100111111001011010010101110110101111000110111101111100111011001100101100000110010101111001101111110011100111110110
0100101101111001011100011111000101010101101100011001101101000111010101001001000001000001010001001100010111100110111001100100001001011010011011100110001111100011111001001001110110100011110010001111000100111010111111110101000001110111010000011010011010011100
0010010111111011011111000110001010100101010000101111000111101111111001111000100101001101001100100111101000001111010110111010110100000101100100000101110000001110100100010011011100111011000111010010010011000101000001000000010010011101101111111101000110100001
0000111001111011001110011111010100011011100101001111101001001010000110010101100001011101111111011100110110101001001101100011001010010010010001100000010101011001110000010000010000001011111100000010101000110010111100100110110111001111010100111011101000100011
0111010100110100001010000010111001110101011100000110001110110011100001111101011010001010101001101101001101111100011110001111001101001000111111011011001100101001001101001111100101110101100111011100001111000001000000011001001011011010010011001100010111001101
1011110000000100101011010011000101101100010011110100001110011100111100111110111000101100100100100101101101110100101001101011000111101100101011010101001001110111000101100100110010011000001010001100011110000001000011100001001110000100111111100100110010111001
1010010101000011011111000000110110010111010110111111001110001011011101101001100101001111001000100000001111011100001000111001110101111101000001000101111010001110101101010011111111111101100110011110010110011101000010000011100001111111101001111000101010101101
1100101011011011000000011101001011010000101010111001110111110100111010000000010111001111100100110001110010011101110001100000010100011001101010101111010110000001010011100100100000101010000001110011100011100110101111101100010010100100000010100111010111010110
0000000001101100101110100111110110011110000101111011011100001110001000011100100101010000100101010111100110001001001011110011100010111011010111000010101111001110111010110011011101001010011101100110101010001010111010101100000110111001110001111111011110100001
0111000011010011100010000001101001000101011010111101011011111101111011101010000100101110001000000011111011001101010011110100011100001001100011011111100010000101011011110010101010000100001101111101000011100101101111101100011000100001100010100111000110010110
0010011111100111011000111010101010010101101110101011010010110010010010100000001111001111011000010010110110110100010010111001110110010001101100001011110010000000100110110010000010101001000111111000110001010110111000111010101010111010000001000100000001100111
